#include "leak_model_data.h"

const unsigned char g_leak_model_data[] = {
  0x1c, 0x00, 0x00, 0x00, 0x54, 0x46, 0x4c, 0x33, 0x14, 0x00, 0x20, 0x00,
  0x1c, 0x00, 0x18, 0x00, 0x14, 0x00, 0x10, 0x00, 0x0c, 0x00, 0x00, 0x00,
  0x08, 0x00, 0x04, 0x00, 0x14, 0x00, 0x00, 0x00, 0x1c, 0x00, 0x00, 0x00,
  0x90, 0x00, 0x00, 0x00, 0xe8, 0x00, 0x00, 0x00, 0x94, 0x11, 0x00, 0x00,
  0xa4, 0x11, 0x00, 0x00, 0x14, 0x18, 0x00, 0x00, 0x03, 0x00, 0x00, 0x00,
  0x01, 0x00, 0x00, 0x00, 0x04, 0x00, 0x00, 0x00, 0x1e, 0xee, 0xff, 0xff,
  0x0c, 0x00, 0x00, 0x00, 0x1c, 0x00, 0x00, 0x00, 0x3c, 0x00, 0x00, 0x00,
  0x0f, 0x00, 0x00, 0x00, 0x73, 0x65, 0x72, 0x76, 0x69, 0x6e, 0x67, 0x5f,
  0x64, 0x65, 0x66, 0x61, 0x75, 0x6c, 0x74, 0x00, 0x01, 0x00, 0x00, 0x00,
  0x04, 0x00, 0x00, 0x00, 0x8c, 0xff, 0xff, 0xff, 0x0a, 0x00, 0x00, 0x00,
  0x04, 0x00, 0x00, 0x00, 0x08, 0x00, 0x00, 0x00, 0x6f, 0x75, 0x74, 0x70,
  0x75, 0x74, 0x5f, 0x30, 0x00, 0x00, 0x00, 0x00, 0x01, 0x00, 0x00, 0x00,
  0x04, 0x00, 0x00, 0x00, 0x2e, 0xef, 0xff, 0xff, 0x04, 0x00, 0x00, 0x00,
  0x13, 0x00, 0x00, 0x00, 0x6e, 0x6f, 0x72, 0x6d, 0x61, 0x6c, 0x69, 0x7a,
  0x65, 0x64, 0x5f, 0x66, 0x65, 0x61, 0x74, 0x75, 0x72, 0x65, 0x73, 0x00,
  0x02, 0x00, 0x00, 0x00, 0x34, 0x00, 0x00, 0x00, 0x04, 0x00, 0x00, 0x00,
  0xdc, 0xff, 0xff, 0xff, 0x0d, 0x00, 0x00, 0x00, 0x04, 0x00, 0x00, 0x00,
  0x13, 0x00, 0x00, 0x00, 0x43, 0x4f, 0x4e, 0x56, 0x45, 0x52, 0x53, 0x49,
  0x4f, 0x4e, 0x5f, 0x4d, 0x45, 0x54, 0x41, 0x44, 0x41, 0x54, 0x41, 0x00,
  0x08, 0x00, 0x0c, 0x00, 0x08, 0x00, 0x04, 0x00, 0x08, 0x00, 0x00, 0x00,
  0x0c, 0x00, 0x00, 0x00, 0x04, 0x00, 0x00, 0x00, 0x13, 0x00, 0x00, 0x00,
  0x6d, 0x69, 0x6e, 0x5f, 0x72, 0x75, 0x6e, 0x74, 0x69, 0x6d, 0x65, 0x5f,
  0x76, 0x65, 0x72, 0x73, 0x69, 0x6f, 0x6e, 0x00, 0x0e, 0x00, 0x00, 0x00,
  0xa8, 0x10, 0x00, 0x00, 0xa0, 0x10, 0x00, 0x00, 0x50, 0x10, 0x00, 0x00,
  0x38, 0x08, 0x00, 0x00, 0xe8, 0x07, 0x00, 0x00, 0x58, 0x07, 0x00, 0x00,
  0x44, 0x07, 0x00, 0x00, 0xb4, 0x00, 0x00, 0x00, 0xac, 0x00, 0x00, 0x00,
  0xa4, 0x00, 0x00, 0x00, 0x9c, 0x00, 0x00, 0x00, 0x94, 0x00, 0x00, 0x00,
  0x74, 0x00, 0x00, 0x00, 0x04, 0x00, 0x00, 0x00, 0xe6, 0xef, 0xff, 0xff,
  0x04, 0x00, 0x00, 0x00, 0x60, 0x00, 0x00, 0x00, 0x10, 0x00, 0x00, 0x00,
  0x00, 0x00, 0x00, 0x00, 0x08, 0x00, 0x0e, 0x00, 0x08, 0x00, 0x04, 0x00,
  0x08, 0x00, 0x00, 0x00, 0x10, 0x00, 0x00, 0x00, 0x24, 0x00, 0x00, 0x00,
  0x00, 0x00, 0x06, 0x00, 0x08, 0x00, 0x04, 0x00, 0x06, 0x00, 0x00, 0x00,
  0x04, 0x00, 0x00, 0x00, 0x00, 0x00, 0x00, 0x00, 0x0c, 0x00, 0x18, 0x00,
  0x14, 0x00, 0x10, 0x00, 0x0c, 0x00, 0x04, 0x00, 0x0c, 0x00, 0x00, 0x00,
  0xf9, 0xc6, 0x17, 0x9d, 0x28, 0x91, 0x2f, 0xf0, 0x02, 0x00, 0x00, 0x00,
  0x02, 0x00, 0x00, 0x00, 0x04, 0x00, 0x00, 0x00, 0x06, 0x00, 0x00, 0x00,
  0x32, 0x2e, 0x31, 0x38, 0x2e, 0x30, 0x00, 0x00, 0x52, 0xf0, 0xff, 0xff,
  0x04, 0x00, 0x00, 0x00, 0x10, 0x00, 0x00, 0x00, 0x31, 0x2e, 0x31, 0x34,
  0x2e, 0x30, 0x00, 0x00, 0x00, 0x00, 0x00, 0x00, 0x00, 0x00, 0x00, 0x00,
  0xcc, 0xe9, 0xff, 0xff, 0xd0, 0xe9, 0xff, 0xff, 0xd4, 0xe9, 0xff, 0xff,
  0xd8, 0xe9, 0xff, 0xff, 0x7e, 0xf0, 0xff, 0xff, 0x04, 0x00, 0x00, 0x00,
  0x80, 0x06, 0x00, 0x00, 0x3b, 0xe2, 0x9d, 0x3e, 0xc5, 0x89, 0x91, 0xbe,
  0xbe, 0x2e, 0xf1, 0xbd, 0x3e, 0x36, 0x8c, 0x3e, 0x2a, 0xa7, 0x18, 0x3d,
  0xc1, 0x38, 0xb4, 0x3d, 0x3e, 0x36, 0xb7, 0xbd, 0x84, 0x34, 0xeb, 0xbd,
  0xc0, 0x2e, 0x90, 0x3d, 0x24, 0x97, 0x1b, 0x3e, 0xcc, 0xc6, 0x17, 0xbe,
  0x40, 0x4b, 0x96, 0x3e, 0x58, 0x42, 0x8e, 0x3d, 0x6b, 0xdb, 0x55, 0x3e,
  0xcb, 0xaf, 0xfc, 0xbd, 0x67, 0xe2, 0xe3, 0x3d, 0x01, 0x67, 0xb7, 0x3e,
  0xfc, 0xfe, 0xad, 0xbe, 0x2b, 0xab, 0x06, 0xbd, 0x91, 0x13, 0x81, 0x3d,
  0xac, 0x4b, 0xd7, 0xbd, 0xc7, 0x40, 0x9a, 0xbe, 0x30, 0xf1, 0x33, 0xbd,
  0x8c, 0x35, 0x48, 0x3e, 0x98, 0x47, 0x18, 0xbd, 0x38, 0x67, 0x3d, 0x3d,
  0x5f, 0x52, 0x93, 0xbd, 0x42, 0x02, 0x39, 0xbe, 0x06, 0xe0, 0x0e, 0xbe,
  0x95, 0x0c, 0x96, 0xbd, 0x99, 0xbc, 0x63, 0x3e, 0xc2, 0x28, 0x97, 0xbe,
  0x7a, 0xe5, 0x97, 0x3e, 0xac, 0x2c, 0xd3, 0x3d, 0x5c, 0x90, 0x21, 0x3e,
  0xca, 0xb2, 0x8a, 0x3e, 0x8d, 0xe8, 0x6b, 0xbe, 0x40, 0x1b, 0x4c, 0x3c,
  0xcb, 0x76, 0x08, 0xbe, 0x7a, 0xc7, 0x93, 0x3e, 0xb2, 0x5d, 0x65, 0xbe,
  0x13, 0xe1, 0x21, 0x3d, 0x0f, 0x53, 0xbc, 0xbe, 0x08, 0xf6, 0x18, 0xbe,
  0xa3, 0xd2, 0xb9, 0x3e, 0x89, 0x09, 0xad, 0x3e, 0x0c, 0xd3, 0xd3, 0x3d,
  0x7c, 0xad, 0xc7, 0x3d, 0xc0, 0xdd, 0x30, 0xbd, 0xc0, 0xa9, 0xd0, 0xbc,
  0x07, 0xa0, 0x98, 0xbe, 0x69, 0x45, 0x6f, 0xbe, 0x63, 0x99, 0xb5, 0xbe,
  0x1c, 0xca, 0x75, 0x3e, 0xb0, 0x9d, 0xa1, 0x3e, 0x1a, 0x85, 0x88, 0x3e,
  0x2b, 0x6e, 0x07, 0x3e, 0x74, 0x70, 0xd3, 0x3e, 0x4e, 0x21, 0x88, 0xbd,
  0x48, 0x69, 0x8e, 0xbd, 0xce, 0xab, 0x2a, 0xbe, 0x60, 0x95, 0xb5, 0x3c,
  0x1e, 0xbe, 0x9b, 0xbe, 0xea, 0xf6, 0xae, 0xbe, 0x14, 0x68, 0x61, 0x3e,
  0xf9, 0xd3, 0x33, 0x3e, 0x51, 0x64, 0x53, 0xbe, 0xd9, 0x42, 0x87, 0x3e,
  0x39, 0xcf, 0xa1, 0x3e, 0x08, 0x68, 0x78, 0xbc, 0x59, 0x40, 0x86, 0xbe,
  0x6c, 0xc1, 0xb1, 0xbd, 0x11, 0x42, 0x82, 0xbe, 0x70, 0x8a, 0x2c, 0xbd,
  0xf7, 0x1c, 0x40, 0xbe, 0x0f, 0x9a, 0x1b, 0xbe, 0x98, 0x35, 0x68, 0x3d,
  0x84, 0x54, 0xe6, 0x3d, 0xb1, 0x26, 0x86, 0x3e, 0x70, 0xc8, 0x76, 0x3e,
  0x76, 0x6e, 0x7f, 0x3e, 0xc1, 0xb8, 0x44, 0xbd, 0x73, 0x9c, 0xba, 0xbd,
  0xc7, 0xd5, 0xbf, 0x3e, 0x32, 0xfb, 0x9a, 0x3e, 0x1d, 0x74, 0x28, 0xbe,
  0x4e, 0x0b, 0x81, 0x3e, 0xe4, 0x5c, 0x13, 0x3e, 0x5c, 0xf4, 0x78, 0xbe,
  0x0d, 0xb7, 0xa1, 0xbe, 0xe8, 0xa3, 0x38, 0xbe, 0x73, 0x3d, 0x69, 0xbe,
  0xf5, 0x8f, 0xed, 0x3d, 0x93, 0xc8, 0x9a, 0x3e, 0x7b, 0x87, 0x71, 0xbe,
  0xdf, 0x84, 0x89, 0xbe, 0x84, 0x7a, 0x4e, 0xbc, 0xc3, 0x95, 0xe4, 0x3d,
  0xc8, 0x08, 0x19, 0x3d, 0xa0, 0x0a, 0x8d, 0x3c, 0x40, 0x39, 0xb6, 0xbd,
  0x70, 0x5a, 0xb3, 0x3e, 0x28, 0x7e, 0x4c, 0xbe, 0x88, 0x2d, 0x7e, 0xbd,
  0x7f, 0x6f, 0x12, 0x3d, 0x9f, 0xfb, 0xa9, 0xbe, 0x60, 0xdf, 0xa0, 0x3e,
  0x2e, 0x15, 0x58, 0xbe, 0x1e, 0x3c, 0xb2, 0xbc, 0x27, 0x7a, 0x94, 0x3e,
  0x8c, 0x82, 0x5e, 0xbe, 0x34, 0x65, 0xe7, 0x3d, 0x8e, 0x41, 0xac, 0xbe,
  0x3a, 0xf7, 0x9b, 0x3e, 0x2e, 0x59, 0xb8, 0x3e, 0x24, 0x9c, 0x9b, 0xbd,
  0xf8, 0x81, 0x3e, 0x3e, 0x3d, 0xfd, 0x51, 0x3e, 0x91, 0x26, 0x43, 0xbd,
  0xe4, 0x7c, 0x70, 0xbe, 0xc8, 0xfd, 0x95, 0x3e, 0x97, 0x17, 0xff, 0xbc,
  0x54, 0xb3, 0x06, 0xbe, 0x39, 0x1e, 0xd7, 0xbd, 0xde, 0x95, 0x01, 0xbe,
  0xe0, 0xed, 0x94, 0x3c, 0x04, 0xe7, 0x33, 0x3e, 0x58, 0xc9, 0x7a, 0xbe,
  0xf0, 0x78, 0x5f, 0x3e, 0xe0, 0xce, 0x36, 0xbd, 0xc2, 0xda, 0xe5, 0xbe,
  0x17, 0x8b, 0xbf, 0xbd, 0xf4, 0x18, 0x0d, 0x3e, 0xdf, 0x3d, 0xfd, 0xbe,
  0xf1, 0xf2, 0xe7, 0x3e, 0x18, 0xc1, 0x4b, 0xbe, 0x65, 0xb2, 0x51, 0x3e,
  0x98, 0x0b, 0xf6, 0x3d, 0x34, 0x93, 0xd4, 0xbd, 0x83, 0x15, 0xb5, 0xbe,
  0x36, 0x55, 0xa8, 0x3e, 0xb2, 0xd3, 0x09, 0x3e, 0xb9, 0xbe, 0x06, 0xbe,
  0x5d, 0x58, 0x10, 0xbe, 0x54, 0x6c, 0xff, 0xbd, 0xed, 0x96, 0xba, 0xbe,
  0x0c, 0x37, 0x4e, 0xbe, 0x99, 0x7d, 0xb6, 0xbd, 0xef, 0xa3, 0xd2, 0xbd,
  0xb3, 0x8b, 0x7d, 0x3e, 0xf7, 0xe0, 0x53, 0xbe, 0xac, 0x65, 0x11, 0x3e,
  0x40, 0xa3, 0x67, 0x3e, 0x10, 0x73, 0x18, 0xbd, 0xb7, 0xad, 0x36, 0xbe,
  0x58, 0x1f, 0x27, 0x3e, 0xe9, 0xdf, 0xa1, 0x3e, 0x5a, 0xa3, 0xc4, 0x3e,
  0xfa, 0xef, 0xcb, 0x3e, 0x36, 0x4c, 0x83, 0x3e, 0x5b, 0x25, 0x9d, 0xbe,
  0x74, 0x6a, 0x9b, 0x3c, 0x50, 0x52, 0x3a, 0xbe, 0xaf, 0xd1, 0x41, 0xbe,
  0x10, 0xb5, 0x9a, 0x3e, 0x40, 0x7e, 0xe3, 0x3d, 0x58, 0x7c, 0xc8, 0xbd,
  0x13, 0x85, 0x65, 0xbe, 0xe4, 0x0d, 0x18, 0x3e, 0x60, 0x16, 0xad, 0xbd,
  0x95, 0x8e, 0x94, 0xbb, 0xc1, 0x7a, 0x1d, 0x3e, 0xc6, 0xde, 0xe3, 0xbd,
  0x36, 0xfb, 0xf0, 0xbd, 0x0b, 0x64, 0xd3, 0xbd, 0x4b, 0x37, 0x12, 0xbe,
  0x30, 0x98, 0xe7, 0x3d, 0x45, 0x8b, 0x37, 0xbe, 0x40, 0xcf, 0xf0, 0x3c,
  0x60, 0x11, 0xaf, 0x3c, 0x36, 0xad, 0x8c, 0x3e, 0x70, 0x0d, 0x51, 0x3d,
  0x5c, 0xec, 0xde, 0x3d, 0x09, 0xe6, 0x5b, 0xbd, 0x06, 0x42, 0xe8, 0x3c,
  0x50, 0x68, 0xf2, 0xbd, 0xcf, 0xef, 0x9b, 0xbd, 0x6d, 0x27, 0xbd, 0xbd,
  0xac, 0x30, 0xed, 0xbe, 0x1e, 0xae, 0x82, 0xbe, 0x50, 0x5b, 0x92, 0xbe,
  0x4c, 0xa0, 0x92, 0x3d, 0x90, 0x5a, 0xb0, 0xbc, 0x0d, 0x05, 0xb6, 0xbe,
  0xc8, 0x0d, 0x8f, 0x3e, 0xdd, 0xc3, 0x64, 0x3e, 0x67, 0x3f, 0x85, 0xbe,
  0xaf, 0x4f, 0x5b, 0xbe, 0x2d, 0x12, 0x13, 0x3e, 0x30, 0x3f, 0x80, 0x3e,
  0x54, 0x2c, 0xbb, 0x3e, 0xb2, 0x61, 0xfe, 0xbd, 0xa8, 0xd9, 0x03, 0x3e,
  0xe0, 0xd5, 0x50, 0x3e, 0xb8, 0x97, 0xb2, 0xbd, 0xd4, 0xe5, 0x3f, 0x3e,
  0xbe, 0xa3, 0x90, 0x3e, 0x17, 0xe4, 0x6f, 0xbe, 0x10, 0xf0, 0xe0, 0xbe,
  0x9c, 0x1a, 0x9d, 0xbe, 0xb8, 0xa7, 0x8d, 0xbe, 0xc5, 0xd4, 0x18, 0xbe,
  0xf8, 0x99, 0x9a, 0x3e, 0x07, 0x5e, 0xf0, 0xbd, 0x66, 0xdc, 0x0d, 0x3d,
  0xd0, 0x78, 0x17, 0x3e, 0x90, 0x7f, 0xae, 0xbd, 0x16, 0x2b, 0x93, 0xbe,
  0x38, 0x39, 0x8e, 0xbe, 0xf8, 0x40, 0x7f, 0xbe, 0x8b, 0x24, 0xa0, 0xbe,
  0x43, 0x27, 0xad, 0xbe, 0x46, 0xc4, 0x57, 0x3e, 0x3a, 0xbb, 0xd7, 0x3e,
  0x35, 0x1e, 0x17, 0x3e, 0xfe, 0xec, 0xe7, 0x3d, 0xec, 0xc5, 0x2e, 0xbe,
  0xa7, 0xf3, 0xb2, 0x3e, 0x30, 0x3e, 0xc6, 0xbd, 0xb8, 0x43, 0xba, 0x3e,
  0x72, 0xba, 0x92, 0xbe, 0x7d, 0x10, 0x1b, 0xbe, 0x10, 0x92, 0xc5, 0xbd,
  0x60, 0xc4, 0xbe, 0x3c, 0x10, 0x21, 0xf2, 0xbd, 0x7e, 0x59, 0x33, 0x3e,
  0x6f, 0xae, 0x8b, 0xbe, 0x57, 0xb6, 0x20, 0xbe, 0xa7, 0x32, 0x0e, 0x3e,
  0x70, 0x08, 0x33, 0x3e, 0x00, 0x6c, 0x1b, 0x3e, 0x80, 0xfb, 0xb0, 0x3b,
  0x88, 0xcb, 0x3f, 0x3e, 0xb8, 0xa1, 0xa7, 0x3e, 0x4a, 0xcf, 0x8c, 0xbe,
  0x40, 0xb5, 0xce, 0xbd, 0x92, 0x16, 0x8d, 0xbe, 0x58, 0x50, 0xdb, 0xbe,
  0x06, 0xb0, 0xda, 0xbc, 0x0b, 0xbd, 0x8d, 0xbe, 0xd1, 0xd7, 0x89, 0xbe,
  0x8d, 0x66, 0x01, 0x3f, 0x3c, 0x8b, 0xf0, 0xbe, 0x55, 0x77, 0x4b, 0xbe,
  0x32, 0x5e, 0x91, 0x3e, 0xb2, 0x75, 0xa7, 0x3e, 0x6a, 0x59, 0x9a, 0x3e,
  0x26, 0x86, 0x83, 0x3e, 0xe0, 0x97, 0xcf, 0xbc, 0x04, 0x64, 0xea, 0xbd,
  0x69, 0xd7, 0x6c, 0xbe, 0xb2, 0x1b, 0xc4, 0xbe, 0x81, 0xd9, 0x4e, 0xbe,
  0x8b, 0x43, 0xd9, 0x3e, 0x53, 0x31, 0x7e, 0xbe, 0xf7, 0x1c, 0xb1, 0x39,
  0x0f, 0xcf, 0xe1, 0xbe, 0xd6, 0x01, 0x85, 0x3e, 0xbf, 0x64, 0x86, 0xbe,
  0x70, 0x98, 0x43, 0x3e, 0x84, 0xf8, 0x58, 0x3e, 0xfc, 0x3c, 0x7b, 0x3e,
  0x10, 0x77, 0xa5, 0x3e, 0x3b, 0xf2, 0x54, 0x3e, 0x4b, 0x5f, 0x7f, 0xbe,
  0x83, 0x57, 0x75, 0xbe, 0x30, 0xf7, 0xa9, 0xbe, 0x60, 0x37, 0x68, 0xbd,
  0x0a, 0xdb, 0xa9, 0x3e, 0x60, 0x05, 0x62, 0x3e, 0xb4, 0xb9, 0x45, 0x3e,
  0x98, 0xd0, 0x7b, 0x3e, 0x90, 0x81, 0x0f, 0xbd, 0xcf, 0x0f, 0x1d, 0xbe,
  0x20, 0xf6, 0xd2, 0x3d, 0xa0, 0xd7, 0x74, 0xbd, 0x58, 0xd7, 0x58, 0x3e,
  0x0a, 0x6a, 0xa1, 0x3e, 0x9f, 0x2e, 0xa7, 0x3e, 0x87, 0x82, 0xd4, 0xbe,
  0xb9, 0xfe, 0x4c, 0x3e, 0x6f, 0x4b, 0xac, 0xbe, 0xd9, 0x36, 0x30, 0xbd,
  0xf6, 0x7f, 0x1f, 0xbe, 0xf4, 0xc3, 0x05, 0x3e, 0x6c, 0x7b, 0xa5, 0x3d,
  0x14, 0x27, 0x56, 0xbe, 0xd8, 0xa8, 0x12, 0x3d, 0x84, 0xfb, 0x5d, 0xbe,
  0x05, 0x8e, 0x96, 0xbe, 0x06, 0xdd, 0xac, 0x3e, 0x68, 0xd8, 0xa1, 0x3e,
  0x62, 0x17, 0x93, 0xbe, 0xcf, 0x68, 0xed, 0x3e, 0x14, 0x20, 0x8f, 0xbe,
  0x53, 0x91, 0x01, 0xbe, 0x84, 0x61, 0x49, 0x3e, 0xc0, 0x6c, 0xdd, 0x3c,
  0x5e, 0x8f, 0xba, 0x3e, 0xf8, 0xbd, 0xe3, 0x3d, 0xa8, 0x1f, 0x81, 0xbd,
  0xf7, 0xd2, 0x7e, 0xbe, 0x7d, 0x34, 0xc4, 0x3e, 0xcb, 0xd8, 0x38, 0xbe,
  0xb0, 0x00, 0x05, 0x3c, 0xfd, 0x50, 0x0d, 0x3e, 0xf3, 0x87, 0xd5, 0xbe,
  0x36, 0xf2, 0x29, 0xbe, 0xd2, 0xbb, 0x9d, 0xbd, 0x18, 0x07, 0x78, 0x3e,
  0x34, 0xf3, 0x8d, 0x3d, 0xf4, 0xe6, 0x4d, 0x3e, 0x83, 0xaa, 0x89, 0xbe,
  0x90, 0xba, 0xbd, 0xbc, 0xc0, 0x61, 0x59, 0x3c, 0xd1, 0x7d, 0x49, 0xbe,
  0x32, 0xfe, 0xdd, 0xbd, 0x10, 0xe2, 0x55, 0x3d, 0x23, 0xcc, 0x67, 0xbe,
  0x5d, 0xa0, 0x03, 0xbe, 0xe7, 0x7c, 0x27, 0xbc, 0xc4, 0xd3, 0x94, 0xbe,
  0x03, 0xb2, 0x51, 0xbe, 0x80, 0x89, 0xd8, 0x3d, 0x70, 0x3c, 0xbd, 0x3c,
  0xc8, 0x0a, 0xb8, 0x3d, 0x42, 0x51, 0x34, 0xbe, 0xfc, 0xb7, 0xec, 0x3d,
  0xe0, 0x97, 0x22, 0xbe, 0xa6, 0x32, 0xdb, 0xbe, 0xa0, 0xd3, 0x58, 0x3d,
  0x4a, 0x6d, 0xef, 0xbe, 0xe7, 0x99, 0x78, 0xbd, 0x50, 0x0e, 0x3f, 0xbd,
  0xd8, 0xef, 0x73, 0x3e, 0xa0, 0x77, 0x56, 0xbd, 0xa8, 0xb4, 0x52, 0x3e,
  0xf4, 0x2d, 0x63, 0x3e, 0xa8, 0xd0, 0x6f, 0xbd, 0xc4, 0x51, 0xc9, 0xbd,
  0x58, 0xe8, 0x5f, 0x3e, 0x67, 0xca, 0x57, 0xbc, 0x49, 0x35, 0xdb, 0xbe,
  0xc3, 0xb8, 0xb8, 0x3d, 0xbd, 0x7d, 0x8c, 0x3e, 0x48, 0xc3, 0x9b, 0xbe,
  0x3a, 0x4f, 0xc7, 0xbe, 0x15, 0x90, 0x97, 0xbd, 0xf8, 0x0e, 0x4b, 0x3d,
  0xb0, 0xe2, 0xd2, 0x3d, 0xe4, 0x35, 0xa9, 0x3e, 0x42, 0xdd, 0xaa, 0x3e,
  0x90, 0xd9, 0x54, 0x3e, 0x20, 0xa1, 0x9b, 0x3e, 0x12, 0x2b, 0x02, 0x3a,
  0xec, 0xb0, 0x64, 0x3e, 0xb4, 0x3e, 0xb0, 0xbb, 0x38, 0x6f, 0x6b, 0x3e,
  0x7d, 0x6b, 0x8e, 0x3e, 0xb8, 0x3b, 0x3b, 0xbe, 0xd6, 0x54, 0xd5, 0x3b,
  0x88, 0x58, 0x82, 0xbd, 0x99, 0x4d, 0x0b, 0xbe, 0x20, 0xdd, 0x4b, 0x3e,
  0x36, 0x91, 0x84, 0xbe, 0x29, 0x55, 0x9f, 0xbe, 0xf3, 0x89, 0x71, 0xbe,
  0xe1, 0x4a, 0xad, 0xbe, 0x4a, 0x21, 0x9a, 0x3e, 0xba, 0xfd, 0xa3, 0xbe,
  0xe4, 0x17, 0x8f, 0xbe, 0x60, 0x36, 0x9b, 0xbd, 0x7f, 0x08, 0x84, 0xbe,
  0xad, 0x73, 0xe9, 0xbd, 0x51, 0xa6, 0x9f, 0xbe, 0x70, 0xd9, 0xd0, 0x3d,
  0xa0, 0xcf, 0x2a, 0x3c, 0x38, 0x11, 0xf4, 0x3d, 0x44, 0xc6, 0x3f, 0x3e,
  0xd3, 0x0f, 0xac, 0xbe, 0xab, 0x13, 0x4d, 0xbe, 0xc2, 0x51, 0xca, 0xbd,
  0x07, 0x30, 0x84, 0x3e, 0x05, 0xdf, 0x90, 0x3e, 0x17, 0x61, 0x6c, 0x3e,
  0x95, 0x76, 0xf4, 0x3b, 0x62, 0xae, 0x13, 0x3e, 0x18, 0xb1, 0x8b, 0x3e,
  0x54, 0x0e, 0xd1, 0x3d, 0xf6, 0xc2, 0x04, 0xbe, 0x00, 0xd0, 0x49, 0x3a,
  0xdb, 0x74, 0x2f, 0xbe, 0xa0, 0x34, 0x44, 0x3d, 0xde, 0xb9, 0xd0, 0x3e,
  0xfe, 0xfd, 0xdc, 0x3d, 0x32, 0x6a, 0x94, 0xbd, 0xdd, 0xe7, 0x53, 0xbe,
  0x0a, 0xd2, 0x2f, 0x3e, 0x2c, 0x93, 0x74, 0xbe, 0xcf, 0x97, 0xce, 0xbe,
  0xf4, 0xa1, 0xb4, 0x3e, 0x40, 0xbd, 0x27, 0x3d, 0xd0, 0x81, 0xcf, 0x3c,
  0x8c, 0x4a, 0xf7, 0xbd, 0xec, 0x47, 0x2b, 0x3e, 0x1c, 0x59, 0x59, 0x3e,
  0x0a, 0xf7, 0xff, 0xff, 0x04, 0x00, 0x00, 0x00, 0x04, 0x00, 0x00, 0x00,
  0xe1, 0x09, 0xd0, 0x3d, 0x1a, 0xf7, 0xff, 0xff, 0x04, 0x00, 0x00, 0x00,
  0x80, 0x00, 0x00, 0x00, 0xb6, 0xf8, 0x00, 0x3c, 0x9e, 0x58, 0x8b, 0x3d,
  0x5b, 0x26, 0x23, 0xbc, 0xe5, 0x91, 0xf3, 0x3d, 0xde, 0x1b, 0x23, 0x3c,
  0x96, 0x14, 0x08, 0xbd, 0x99, 0x23, 0xed, 0x3d, 0x9a, 0xfb, 0xa8, 0x3b,
  0xe6, 0x0b, 0xdc, 0x3d, 0xed, 0xa7, 0x7e, 0x3d, 0x82, 0xa1, 0x25, 0x3e,
  0x07, 0x4a, 0x10, 0x3e, 0xc2, 0x3c, 0xbf, 0x3d, 0xfb, 0xc6, 0xe8, 0xbd,
  0x97, 0xaa, 0x46, 0x3d, 0x8b, 0x3f, 0xa7, 0x3d, 0xbc, 0x17, 0x07, 0x3e,
  0x19, 0xa6, 0x06, 0x3e, 0xcc, 0xe9, 0x2d, 0x3e, 0x22, 0x0d, 0x0f, 0x3e,
  0x4d, 0x43, 0x1c, 0x3d, 0x25, 0x29, 0x5b, 0xbd, 0x2d, 0x3c, 0x29, 0x3e,
  0xc1, 0x33, 0x13, 0x3e, 0x6f, 0xe2, 0x05, 0x3e, 0x07, 0x67, 0x64, 0xbd,
  0x56, 0x48, 0x1c, 0x3e, 0x7d, 0x62, 0xbf, 0x3d, 0xa8, 0xe9, 0x1c, 0x3b,
  0x23, 0x4b, 0x0c, 0x3e, 0x8a, 0xb3, 0x96, 0xbc, 0xef, 0xb9, 0x6d, 0xbd,
  0xa6, 0xf7, 0xff, 0xff, 0x04, 0x00, 0x00, 0x00, 0x40, 0x00, 0x00, 0x00,
  0x14, 0x8d, 0xfe, 0x3d, 0xb8, 0x5b, 0x54, 0x3d, 0xa1, 0xf6, 0x04, 0x3e,
  0x1f, 0xa0, 0xbf, 0xbc, 0x93, 0xc8, 0x04, 0x3e, 0x71, 0xac, 0x2e, 0xbc,
  0x54, 0xe2, 0x67, 0xbd, 0x75, 0xa3, 0xd2, 0x3c, 0x3f, 0x0e, 0xf4, 0x3d,
  0x8f, 0xb7, 0x52, 0xbd, 0xb8, 0xfa, 0x19, 0x3e, 0x98, 0xdc, 0x0a, 0x3e,
  0x76, 0x08, 0x65, 0xbd, 0x7f, 0x1a, 0x1a, 0x3e, 0xf1, 0x4e, 0x1c, 0xbd,
  0x43, 0x03, 0x96, 0xbd, 0xf2, 0xf7, 0xff, 0xff, 0x04, 0x00, 0x00, 0x00,
  0x00, 0x08, 0x00, 0x00, 0x8c, 0x44, 0x3f, 0x3e, 0x2c, 0xde, 0xbc, 0xbd,
  0x60, 0xf9, 0x48, 0xbe, 0x5d, 0xf8, 0x8a, 0x3e, 0x78, 0x52, 0xa9, 0xbd,
  0x90, 0x9c, 0x90, 0x3d, 0x53, 0xb5, 0x54, 0xbe, 0xc4, 0xec, 0xf1, 0x3c,
  0x97, 0x67, 0x02, 0xbe, 0xcb, 0x25, 0x23, 0xbe, 0x6b, 0x2c, 0x60, 0x3d,
  0x8e, 0x72, 0xe2, 0x3e, 0xcd, 0x4a, 0x60, 0xbe, 0x59, 0x4b, 0x17, 0xbe,
  0xa1, 0xf2, 0x7b, 0xbe, 0x62, 0x2e, 0xad, 0xbd, 0xc9, 0x47, 0xfd, 0xbb,
  0x61, 0x7d, 0x0a, 0x3e, 0x54, 0xeb, 0xeb, 0x3e, 0x9c, 0x5e, 0x6a, 0x3e,
  0x15, 0x45, 0x05, 0x3d, 0x4d, 0xf8, 0xc0, 0xbc, 0xc4, 0xd1, 0xf0, 0x3d,
  0x9f, 0x69, 0xd6, 0x3e, 0x23, 0x66, 0xb4, 0xbd, 0x43, 0xc3, 0x6a, 0xbe,
  0xb5, 0x91, 0xaa, 0x3e, 0xd4, 0xef, 0x95, 0x3e, 0x0b, 0xc0, 0x85, 0x3e,
  0x0e, 0x60, 0xee, 0x3e, 0x87, 0x26, 0xbf, 0x3e, 0xd5, 0x8a, 0x60, 0xbe,
  0x16, 0x22, 0xaf, 0x3d, 0xaa, 0x69, 0x29, 0x3e, 0xb7, 0xc8, 0x22, 0x3d,
  0x2a, 0xc0, 0x86, 0x3e, 0xdf, 0x1a, 0x9d, 0xbe, 0x01, 0x3e, 0x87, 0x3e,
  0x88, 0x2e, 0x24, 0x3e, 0x63, 0x85, 0x8b, 0xbe, 0x95, 0xff, 0x84, 0xbe,
  0x62, 0xf0, 0xaa, 0x3e, 0x8f, 0x5e, 0xb0, 0xbd, 0xa1, 0xcb, 0x00, 0xbe,
  0xcd, 0x16, 0xc6, 0xbd, 0x2b, 0xbe, 0x24, 0xbe, 0x39, 0x44, 0xb6, 0x3e,
  0xcf, 0x19, 0x9d, 0x3e, 0x3d, 0x2a, 0x70, 0xbe, 0xcc, 0x24, 0x82, 0x3e,
  0xca, 0xd9, 0x15, 0xbe, 0xef, 0xfe, 0x1f, 0xbd, 0x9e, 0x27, 0xaa, 0x3e,
  0xce, 0xe7, 0xa0, 0xbe, 0x33, 0x75, 0x9e, 0xbd, 0x19, 0xaa, 0x39, 0xbe,
  0x6a, 0xc7, 0x9e, 0x3e, 0x62, 0x40, 0x82, 0x3e, 0x9d, 0xa5, 0x8d, 0xbe,
  0xd7, 0x53, 0xbb, 0x3d, 0x4a, 0xfb, 0x16, 0xbe, 0x12, 0x60, 0x99, 0xbe,
  0x50, 0x12, 0x57, 0x3d, 0x6a, 0xc6, 0x79, 0x3e, 0x17, 0xc3, 0x04, 0xbe,
  0x6f, 0x73, 0x15, 0xbe, 0x85, 0x30, 0xe6, 0x3e, 0xfc, 0x96, 0x46, 0xbe,
  0x85, 0xde, 0x08, 0xbe, 0xbb, 0xc0, 0x46, 0xbe, 0x09, 0x22, 0xdc, 0x3e,
  0x2f, 0x18, 0x31, 0x3d, 0xe5, 0x17, 0x76, 0x3e, 0xe2, 0x91, 0x88, 0x3d,
  0x6c, 0xdd, 0x86, 0x3e, 0xb9, 0xb4, 0x8d, 0x3e, 0xbc, 0x1f, 0x5c, 0x3e,
  0x39, 0x7c, 0x51, 0xbd, 0xa1, 0x7e, 0x47, 0xbe, 0xbf, 0x0e, 0x58, 0x3d,
  0x7e, 0xf9, 0x0d, 0x3e, 0x10, 0x09, 0x22, 0xbe, 0x45, 0x9b, 0xa7, 0x3d,
  0x03, 0x4a, 0xc6, 0x3e, 0x10, 0x6a, 0x18, 0xbd, 0x49, 0x70, 0xd0, 0xbd,
  0xed, 0x04, 0x86, 0x3e, 0x66, 0xf5, 0x19, 0xbe, 0xdc, 0x00, 0x0f, 0x3d,
  0x59, 0x61, 0xdc, 0x3e, 0xdc, 0x1f, 0xe9, 0x3e, 0x9f, 0x68, 0x39, 0x3a,
  0xd3, 0x11, 0x81, 0x3e, 0xc0, 0xcd, 0xb3, 0x3d, 0x1a, 0xbd, 0x3d, 0x3e,
  0x9f, 0xa2, 0x7e, 0xbe, 0x1b, 0xf4, 0xb1, 0xbd, 0xd3, 0x48, 0xa7, 0x3d,
  0x03, 0x52, 0x2e, 0x3e, 0x27, 0xf5, 0x00, 0xbe, 0xde, 0x5c, 0xf3, 0x3b,
  0x62, 0x48, 0x0e, 0xbe, 0x8b, 0x89, 0x30, 0xbe, 0x6f, 0xf5, 0x96, 0x3e,
  0x06, 0xaf, 0xaa, 0x3e, 0x95, 0xdb, 0x9e, 0x3e, 0xf3, 0x91, 0x81, 0x3d,
  0xf7, 0x37, 0x22, 0x3e, 0x36, 0xf4, 0x2e, 0xbe, 0x02, 0xeb, 0x00, 0xbe,
  0x40, 0xde, 0xf8, 0x3e, 0x0c, 0xcd, 0x2c, 0x3d, 0x99, 0xaa, 0xc6, 0xbe,
  0x44, 0xb5, 0x18, 0xbe, 0x91, 0x7a, 0xe8, 0x3c, 0xe2, 0x2c, 0x9c, 0xbe,
  0x89, 0x54, 0x00, 0xbe, 0x04, 0xf7, 0x1c, 0xbe, 0xbd, 0x29, 0xe4, 0x3d,
  0xe6, 0xb2, 0x20, 0x3d, 0xf8, 0xeb, 0xeb, 0x3e, 0x68, 0x61, 0xe4, 0xbd,
  0xfc, 0xe1, 0x75, 0xbe, 0xff, 0x3a, 0xad, 0x3e, 0x5f, 0x77, 0xb5, 0xbe,
  0xcb, 0x9d, 0x82, 0x3d, 0x59, 0xb6, 0x40, 0xbe, 0xb1, 0x16, 0xfe, 0xbd,
  0xbc, 0x7a, 0x23, 0xbe, 0x94, 0xa6, 0x19, 0xbe, 0x0d, 0xf8, 0x85, 0x3e,
  0x91, 0xd4, 0xd4, 0xbc, 0x7e, 0x61, 0xcd, 0x3e, 0x14, 0xad, 0xb0, 0xbd,
  0x63, 0xf9, 0xc4, 0x3e, 0xf0, 0x80, 0x50, 0x3e, 0xd0, 0x26, 0xa8, 0x3e,
  0x2d, 0xc2, 0x18, 0xbe, 0xd6, 0x1b, 0x0f, 0x3e, 0x41, 0x8c, 0xb1, 0x3e,
  0xc1, 0x39, 0xad, 0xbb, 0x9c, 0x46, 0x18, 0xbe, 0x22, 0x27, 0xa1, 0xbd,
  0x95, 0x07, 0x94, 0x3e, 0x0e, 0x96, 0x50, 0x3e, 0x7d, 0xb4, 0xbd, 0x3e,
  0xaf, 0xdc, 0x86, 0x3e, 0x1a, 0xe9, 0x15, 0xbe, 0xb1, 0xa2, 0x29, 0x3e,
  0x01, 0x63, 0x96, 0xbd, 0x24, 0x10, 0x2a, 0xbe, 0x2f, 0x95, 0xac, 0x3e,
  0xde, 0x47, 0x1d, 0xbe, 0x10, 0xc8, 0x2a, 0x3e, 0xec, 0xcf, 0x0c, 0xbd,
  0xb4, 0x7b, 0xd4, 0x3d, 0x9f, 0x22, 0xe9, 0x3c, 0x8d, 0xf5, 0xde, 0x3d,
  0xf7, 0x57, 0x3b, 0xbd, 0xac, 0x10, 0x19, 0xbe, 0xc2, 0x5e, 0xb5, 0x3e,
  0xf6, 0xaa, 0xdf, 0x3e, 0x68, 0xf7, 0x0e, 0x3d, 0x12, 0xb3, 0x4d, 0x3d,
  0xe8, 0x42, 0x21, 0xbd, 0x46, 0x18, 0x9a, 0x3e, 0xe5, 0x8f, 0xa3, 0xbe,
  0xbe, 0x05, 0xaf, 0x3d, 0x27, 0x55, 0x8f, 0x3e, 0xf2, 0x7d, 0x8f, 0x3e,
  0xed, 0x94, 0x2b, 0x3d, 0x44, 0xc6, 0x7d, 0xbe, 0xdd, 0x0e, 0x10, 0x3d,
  0x16, 0xcc, 0x8f, 0xbe, 0xc3, 0x27, 0xc1, 0x3e, 0xc8, 0x41, 0x65, 0xbc,
  0xff, 0xb9, 0x92, 0xbd, 0xca, 0x90, 0x2e, 0xbe, 0x33, 0x88, 0x85, 0xbe,
  0x1e, 0xd0, 0xc7, 0xbd, 0x04, 0x3c, 0x94, 0x3e, 0xc3, 0xc6, 0xb1, 0xbe,
  0x92, 0x2c, 0x12, 0xbe, 0xdb, 0x84, 0x6c, 0xbe, 0x77, 0xe7, 0x58, 0xbe,
  0xb2, 0xd3, 0x97, 0x3e, 0xb5, 0x09, 0x36, 0xbe, 0x8e, 0x17, 0x84, 0x3e,
  0x1c, 0x42, 0x8f, 0xbe, 0xcd, 0x3d, 0x21, 0x3e, 0x98, 0x3e, 0x64, 0x3e,
  0x66, 0x5a, 0x47, 0x3e, 0xbd, 0xb7, 0xa1, 0xbe, 0x8e, 0x75, 0x8f, 0xbe,
  0x47, 0x3d, 0x46, 0xbe, 0xc1, 0x86, 0x29, 0xbe, 0x7b, 0xa0, 0x0c, 0x3e,
  0x1d, 0x50, 0x4e, 0xbd, 0x83, 0xa4, 0xd8, 0xbd, 0xfd, 0x4b, 0x77, 0xbe,
  0x2f, 0x3e, 0x85, 0x3e, 0x53, 0xe4, 0xc5, 0x3d, 0xb2, 0xa9, 0x0c, 0x3d,
  0xc5, 0x52, 0xbf, 0xbe, 0x8f, 0x4c, 0x91, 0xbe, 0x3e, 0xc6, 0x88, 0x3e,
  0x6f, 0xe2, 0x83, 0xbd, 0x68, 0x7c, 0xe4, 0x3d, 0x97, 0xb3, 0x17, 0x3d,
  0xbd, 0x51, 0xf9, 0x3d, 0x9f, 0x46, 0xc5, 0xbe, 0x88, 0xad, 0x35, 0x3e,
  0x8a, 0xdc, 0xb0, 0xbe, 0x09, 0xc2, 0x38, 0x3e, 0x9f, 0x50, 0xb1, 0x3b,
  0x81, 0x35, 0xe3, 0xbd, 0x00, 0x91, 0x98, 0xbe, 0xa2, 0xaa, 0xbf, 0xbe,
  0xc0, 0xc1, 0x80, 0xbe, 0x5c, 0xce, 0x71, 0xbe, 0x50, 0xd0, 0x01, 0xbd,
  0x65, 0x3c, 0x81, 0xbd, 0x39, 0x31, 0xcd, 0xbb, 0x90, 0xa0, 0x0f, 0x3e,
  0xce, 0x3f, 0xb1, 0x3d, 0x72, 0xfd, 0x0b, 0xbd, 0x6d, 0xea, 0x6d, 0xbe,
  0xa8, 0xc6, 0x84, 0xbe, 0x41, 0xf9, 0x81, 0xbe, 0xdc, 0x9c, 0x2a, 0xbe,
  0xe9, 0x3f, 0x30, 0xbe, 0xfa, 0xae, 0x23, 0xbe, 0xb9, 0xbd, 0xd5, 0x3e,
  0xbf, 0x6a, 0x81, 0x3c, 0x25, 0x40, 0xab, 0xbd, 0x20, 0xf6, 0x4d, 0xbc,
  0x8b, 0xd2, 0xb9, 0x3e, 0xc5, 0x80, 0x95, 0xbe, 0xa4, 0x2e, 0x7a, 0x3e,
  0x0a, 0x95, 0x83, 0x3e, 0xd0, 0x30, 0x80, 0xbe, 0x9e, 0xc1, 0x4d, 0xbe,
  0x26, 0xc4, 0x64, 0x3d, 0x0e, 0xec, 0xd3, 0x3c, 0x2b, 0xf1, 0x89, 0x3e,
  0x56, 0xb1, 0x7c, 0xbe, 0x20, 0x73, 0xe7, 0xbd, 0x4b, 0x26, 0x84, 0x3e,
  0x24, 0x90, 0x77, 0x3d, 0x4d, 0x15, 0xc1, 0x3d, 0xee, 0x8b, 0xbf, 0xbe,
  0xbd, 0xb9, 0xc6, 0x3a, 0x0a, 0x2b, 0xa0, 0xbe, 0xf9, 0x64, 0x1a, 0x3e,
  0x76, 0xc8, 0x74, 0x3e, 0xd4, 0xa6, 0x07, 0x3c, 0xe1, 0x14, 0x7b, 0xbe,
  0x45, 0x3e, 0x58, 0xbe, 0x0d, 0x3f, 0x1d, 0x3e, 0x9b, 0xac, 0x97, 0x3e,
  0x90, 0xe1, 0x77, 0xbc, 0xa5, 0xbc, 0x20, 0xbe, 0x72, 0x22, 0x9d, 0x3e,
  0xb6, 0x97, 0x25, 0xbe, 0xda, 0xf6, 0x45, 0x3d, 0xab, 0xd2, 0x00, 0x3d,
  0xc0, 0x2c, 0xd8, 0x3e, 0x1e, 0x93, 0xaa, 0x3e, 0x03, 0x07, 0x73, 0x3e,
  0xc7, 0xd8, 0x1c, 0xbd, 0xa2, 0x28, 0xab, 0x3d, 0x52, 0xff, 0x05, 0x3e,
  0x45, 0x13, 0x03, 0x3d, 0xf4, 0x81, 0x6f, 0x3e, 0x0a, 0xa8, 0xff, 0x3e,
  0x54, 0x5e, 0x79, 0x3e, 0xb8, 0xa6, 0xcb, 0xbd, 0xd5, 0xda, 0x78, 0xbd,
  0x0d, 0xfe, 0xf4, 0x3e, 0xf2, 0xd9, 0x7b, 0x3e, 0xc4, 0x27, 0xb4, 0xbd,
  0x9a, 0x99, 0x6c, 0xbd, 0xb7, 0x21, 0x99, 0xbd, 0xa9, 0x44, 0xa4, 0xbd,
  0xf7, 0xd2, 0x7a, 0xbe, 0xe8, 0x7f, 0xf5, 0x3e, 0xff, 0xa4, 0x45, 0x3e,
  0x66, 0x39, 0x9f, 0xbc, 0x65, 0xea, 0x6c, 0xbe, 0x68, 0x32, 0x95, 0x3e,
  0x09, 0x7b, 0x8b, 0x3e, 0xbe, 0xcd, 0xa3, 0xbe, 0x30, 0x62, 0xb3, 0xbe,
  0x96, 0x2e, 0xea, 0x3c, 0x30, 0x53, 0xcb, 0xbc, 0x2e, 0x27, 0xdb, 0xbd,
  0x6b, 0x34, 0x39, 0xbe, 0xe3, 0xb1, 0x0a, 0xbd, 0x08, 0xf1, 0x0d, 0xbe,
  0xae, 0x31, 0x4e, 0x3e, 0x47, 0xd5, 0x7b, 0x3c, 0x6c, 0x65, 0xf1, 0xbd,
  0x33, 0x74, 0x9a, 0xbe, 0x8f, 0xb8, 0x30, 0x3e, 0x80, 0x53, 0xcf, 0x3d,
  0xee, 0xbd, 0xe9, 0xbd, 0x9e, 0x7a, 0x6a, 0x3d, 0x90, 0x58, 0x24, 0xbd,
  0x10, 0x02, 0x38, 0x3a, 0x60, 0x6c, 0xbf, 0xbe, 0xfc, 0x51, 0x5a, 0x3e,
  0x32, 0xd9, 0x15, 0xbe, 0x3c, 0x79, 0xd5, 0x3e, 0x8c, 0xb3, 0xa1, 0xbe,
  0xf0, 0x17, 0x70, 0xbe, 0x69, 0xb4, 0xb8, 0xbe, 0x70, 0x91, 0xaf, 0xbe,
  0x8d, 0x58, 0x23, 0x3e, 0xab, 0x36, 0x82, 0x3e, 0x66, 0x26, 0x91, 0xbe,
  0x9a, 0xa0, 0x36, 0xbe, 0xb9, 0xa2, 0xc4, 0x3d, 0xab, 0x8f, 0xe3, 0xbd,
  0xbe, 0x8d, 0xa8, 0x3e, 0x31, 0x91, 0xda, 0xbc, 0xf4, 0x2e, 0x96, 0xbe,
  0x0b, 0x82, 0xe8, 0xbd, 0xc7, 0x31, 0x88, 0x3e, 0x45, 0x08, 0xbc, 0x3e,
  0x3c, 0x49, 0xfe, 0xbd, 0xf2, 0xf4, 0x22, 0x3e, 0x39, 0xf7, 0xd7, 0x3b,
  0x42, 0xe5, 0xfd, 0xbd, 0x74, 0xd2, 0xa5, 0xbd, 0xf2, 0x9a, 0x49, 0xbe,
  0x17, 0x15, 0x8f, 0x3e, 0xa7, 0x29, 0x26, 0xbd, 0x52, 0x6b, 0xa0, 0x3e,
  0x92, 0x7b, 0x9f, 0xbd, 0x71, 0x5b, 0xcf, 0x3e, 0x95, 0xfe, 0xc8, 0xbc,
  0xb3, 0x94, 0x38, 0x3e, 0xbd, 0x21, 0x56, 0x3e, 0xf4, 0x10, 0xd9, 0x3d,
  0xc0, 0x5b, 0x80, 0xbe, 0xc3, 0xb0, 0x38, 0xbe, 0xd5, 0xa2, 0xe8, 0x3e,
  0xf7, 0x11, 0x8e, 0x3e, 0x73, 0xe1, 0xbd, 0xbc, 0x52, 0xe2, 0x75, 0x3e,
  0xb4, 0x42, 0xe6, 0xbd, 0x11, 0xdf, 0x23, 0x3e, 0x76, 0x82, 0x8e, 0x3c,
  0xce, 0x62, 0x66, 0xbd, 0x80, 0x58, 0x09, 0xbe, 0x31, 0xde, 0x1f, 0x3e,
  0x2f, 0x4f, 0xb9, 0x3e, 0x4e, 0xe2, 0x28, 0xbe, 0xe7, 0x9b, 0xc4, 0x3d,
  0x44, 0xcc, 0xb1, 0x3e, 0x80, 0x00, 0x27, 0x3e, 0x2a, 0x97, 0xe3, 0xbd,
  0x00, 0x03, 0xbc, 0x3e, 0xcd, 0x73, 0xe3, 0x3e, 0xdf, 0x88, 0x59, 0x3e,
  0x1d, 0xe6, 0x11, 0xbd, 0xa2, 0x4e, 0x4d, 0x3e, 0x91, 0x92, 0x47, 0x3e,
  0xc7, 0x0a, 0xc6, 0x3e, 0xb7, 0x3a, 0xdd, 0x3d, 0xfe, 0x86, 0xd7, 0x3e,
  0xd8, 0xf6, 0xb5, 0xbd, 0x80, 0x87, 0xa1, 0xbe, 0x51, 0xe9, 0x51, 0xbe,
  0x6d, 0x54, 0x8f, 0x3d, 0x2e, 0x84, 0xbb, 0x3e, 0x90, 0x08, 0xaf, 0xbe,
  0xd6, 0xf5, 0x58, 0xbe, 0x87, 0xf5, 0x82, 0x3d, 0x34, 0xc8, 0x81, 0x3e,
  0x9b, 0x68, 0x4a, 0xbe, 0xce, 0xa0, 0x19, 0x3e, 0x74, 0x54, 0x20, 0xbd,
  0x42, 0xd1, 0xa3, 0x3d, 0xb3, 0xd0, 0xd5, 0xbd, 0x61, 0x4d, 0x73, 0x3e,
  0xd6, 0xdd, 0x79, 0x3d, 0x6b, 0x1a, 0x75, 0x3e, 0xb1, 0xeb, 0x3e, 0xbd,
  0x1f, 0xea, 0x45, 0xbd, 0x60, 0x1c, 0x10, 0xbe, 0x27, 0xec, 0x8f, 0x3d,
  0x31, 0x8c, 0x5a, 0xbe, 0xa5, 0xc7, 0xac, 0xbe, 0x8c, 0x0e, 0xc7, 0xbe,
  0xfb, 0xae, 0x54, 0x3e, 0x63, 0xd9, 0xac, 0xbe, 0x88, 0x9e, 0xc5, 0xbd,
  0x53, 0x43, 0xad, 0x3d, 0xbb, 0x55, 0x93, 0xbe, 0xac, 0xae, 0xb2, 0xbe,
  0xdf, 0xc3, 0x2b, 0xbc, 0xe9, 0x22, 0x84, 0x3e, 0x9a, 0x90, 0x87, 0x3e,
  0xab, 0xa2, 0x3a, 0x3e, 0x43, 0xfa, 0x21, 0x3e, 0x10, 0x86, 0xf5, 0x3d,
  0xed, 0x0d, 0xb8, 0xbe, 0xc4, 0x88, 0x6e, 0xbd, 0xba, 0x27, 0x0e, 0x3e,
  0x6d, 0x68, 0x86, 0x3e, 0xa5, 0x81, 0x16, 0x3d, 0xba, 0x00, 0x33, 0xbe,
  0x0e, 0xa4, 0xf7, 0xbd, 0x40, 0x2e, 0xa2, 0x3d, 0x86, 0xeb, 0x1e, 0xbe,
  0x1e, 0xd4, 0x92, 0x3e, 0x1c, 0xbf, 0x8b, 0xbe, 0xe1, 0x54, 0xc4, 0x3d,
  0xe0, 0x67, 0x02, 0x3e, 0xc3, 0x28, 0x2e, 0x3e, 0xff, 0xde, 0xa6, 0xbe,
  0x02, 0x80, 0xd7, 0x3c, 0x90, 0x8b, 0xef, 0x3d, 0x26, 0xde, 0xba, 0x3e,
  0xad, 0x77, 0x4b, 0x3d, 0x87, 0x6f, 0xa5, 0x3e, 0x49, 0xaf, 0xe4, 0x3e,
  0x98, 0xc1, 0xa3, 0x3d, 0x95, 0x6e, 0x4a, 0x3e, 0x10, 0x03, 0x58, 0xbe,
  0x17, 0xc7, 0xa9, 0xbe, 0x28, 0xa5, 0x1c, 0xbe, 0xc6, 0xb9, 0x1a, 0xbd,
  0xee, 0xce, 0x05, 0x3e, 0xcf, 0xe3, 0xf3, 0x3d, 0x39, 0x45, 0x56, 0x3e,
  0x17, 0x4b, 0xda, 0x3e, 0xa8, 0x3c, 0xb8, 0x3e, 0xbb, 0xf8, 0xc3, 0x3d,
  0x9e, 0xaf, 0x95, 0xbe, 0x7d, 0x86, 0x60, 0x3d, 0xa6, 0xdd, 0x67, 0x3d,
  0x50, 0x93, 0xa6, 0xbd, 0xfc, 0x92, 0xe1, 0x3d, 0x3c, 0x6e, 0xdc, 0xbd,
  0xf2, 0x39, 0x0b, 0xbe, 0x12, 0x01, 0x8a, 0x3e, 0x99, 0x30, 0x1a, 0x3e,
  0xc3, 0xae, 0x63, 0x3e, 0xad, 0xb1, 0xe0, 0xbc, 0x33, 0x08, 0xb0, 0xbd,
  0xfb, 0x0f, 0xcb, 0x3d, 0x09, 0x16, 0x26, 0x3d, 0x7f, 0x26, 0x5a, 0xbe,
  0xf1, 0xb6, 0x12, 0x3e, 0x14, 0xba, 0xa5, 0x3c, 0xb7, 0xd3, 0xeb, 0xbd,
  0x3c, 0xd0, 0x4f, 0xbe, 0x1b, 0x6d, 0xd1, 0xbd, 0x6b, 0x0f, 0x8e, 0x3b,
  0x32, 0xdf, 0x6e, 0xbb, 0x8b, 0x10, 0xc8, 0x3e, 0xb5, 0xd0, 0x44, 0xbe,
  0xe6, 0xc9, 0x9a, 0x3c, 0x0f, 0xb9, 0x85, 0x3e, 0xfd, 0x4c, 0xc1, 0x3d,
  0xef, 0x7c, 0x5d, 0x3e, 0xe9, 0x99, 0x9e, 0xbe, 0x7e, 0xa6, 0xeb, 0xbd,
  0x97, 0x9a, 0x8d, 0xbe, 0x4e, 0x12, 0xb0, 0xbe, 0x7c, 0x15, 0x38, 0x3e,
  0x91, 0xc4, 0x51, 0x3e, 0x7d, 0xed, 0xfb, 0xbd, 0x56, 0x7c, 0xab, 0x3d,
  0x1d, 0xbd, 0xb9, 0xbe, 0xf1, 0x2d, 0x2d, 0xbe, 0x9e, 0x72, 0xa3, 0xbe,
  0x6a, 0x82, 0x2a, 0xbe, 0x3d, 0xe5, 0x50, 0xbd, 0xe9, 0xb2, 0x9e, 0x3e,
  0x23, 0x14, 0x10, 0x3e, 0x0d, 0x7a, 0x8c, 0xbe, 0x64, 0x82, 0x27, 0x3e,
  0x6a, 0x8b, 0xf9, 0xbd, 0x7a, 0xcc, 0x52, 0x3e, 0x28, 0xa1, 0xe2, 0x3d,
  0x8e, 0x01, 0x5d, 0xbb, 0x96, 0x38, 0xa2, 0x3e, 0x14, 0x63, 0x7b, 0x3e,
  0xce, 0x18, 0x28, 0xbe, 0x64, 0x69, 0xbf, 0x3e, 0xbe, 0x2f, 0x8e, 0x3e,
  0x97, 0xb4, 0xb7, 0x3e, 0xff, 0x5c, 0xac, 0xbc, 0x89, 0xa9, 0x80, 0xbe,
  0x6e, 0x36, 0x2a, 0x3e, 0x02, 0xb8, 0xe2, 0x3d, 0xd4, 0xdc, 0xe6, 0xbd,
  0xb4, 0xd7, 0x44, 0x3e, 0x96, 0xda, 0x86, 0xbe, 0x89, 0xaa, 0x32, 0xbd,
  0x4c, 0x08, 0xe1, 0xbe, 0xea, 0x55, 0xba, 0x3e, 0x82, 0x68, 0xb9, 0xbe,
  0xaf, 0x5f, 0x0f, 0xbe, 0x98, 0xf8, 0x97, 0x3e, 0x23, 0x6c, 0xbf, 0x3d,
  0xe7, 0xab, 0x97, 0xbd, 0x39, 0x5b, 0x88, 0x3e, 0xd4, 0xd3, 0xc9, 0xbd,
  0x00, 0x00, 0x06, 0x00, 0x08, 0x00, 0x04, 0x00, 0x06, 0x00, 0x00, 0x00,
  0x04, 0x00, 0x00, 0x00, 0x40, 0x00, 0x00, 0x00, 0x36, 0x28, 0x3e, 0x3f,
  0x77, 0xb8, 0x02, 0xbf, 0xff, 0x0a, 0x08, 0x3f, 0xb2, 0x43, 0x15, 0xbf,
  0x14, 0xd6, 0xc2, 0x3e, 0x30, 0x87, 0x22, 0xbf, 0x22, 0x4e, 0x6f, 0xbe,
  0x93, 0x9f, 0x39, 0xbf, 0x7c, 0xba, 0x06, 0x3f, 0x7b, 0xdd, 0xf8, 0xbe,
  0xff, 0x36, 0xe4, 0x3e, 0x30, 0x05, 0xda, 0x3e, 0x44, 0xea, 0x1c, 0xbe,
  0xf3, 0x30, 0xce, 0x3e, 0xde, 0xdd, 0xd3, 0xbd, 0x2d, 0x53, 0x42, 0xbe,
  0xb0, 0xf9, 0xff, 0xff, 0xb4, 0xf9, 0xff, 0xff, 0x0f, 0x00, 0x00, 0x00,
  0x4d, 0x4c, 0x49, 0x52, 0x20, 0x43, 0x6f, 0x6e, 0x76, 0x65, 0x72, 0x74,
  0x65, 0x64, 0x2e, 0x00, 0x01, 0x00, 0x00, 0x00, 0x14, 0x00, 0x00, 0x00,
  0x00, 0x00, 0x0e, 0x00, 0x18, 0x00, 0x14, 0x00, 0x10, 0x00, 0x0c, 0x00,
  0x08, 0x00, 0x04, 0x00, 0x0e, 0x00, 0x00, 0x00, 0x14, 0x00, 0x00, 0x00,
  0x1c, 0x00, 0x00, 0x00, 0x18, 0x01, 0x00, 0x00, 0x1c, 0x01, 0x00, 0x00,
  0x20, 0x01, 0x00, 0x00, 0x04, 0x00, 0x00, 0x00, 0x6d, 0x61, 0x69, 0x6e,
  0x00, 0x00, 0x00, 0x00, 0x04, 0x00, 0x00, 0x00, 0xc0, 0x00, 0x00, 0x00,
  0x78, 0x00, 0x00, 0x00, 0x34, 0x00, 0x00, 0x00, 0x10, 0x00, 0x00, 0x00,
  0x00, 0x00, 0x0a, 0x00, 0x10, 0x00, 0x0c, 0x00, 0x08, 0x00, 0x04, 0x00,
  0x0a, 0x00, 0x00, 0x00, 0x0c, 0x00, 0x00, 0x00, 0x10, 0x00, 0x00, 0x00,
  0x01, 0x00, 0x00, 0x00, 0x01, 0x00, 0x00, 0x00, 0x0a, 0x00, 0x00, 0x00,
  0x01, 0x00, 0x00, 0x00, 0x09, 0x00, 0x00, 0x00, 0xce, 0xff, 0xff, 0xff,
  0x10, 0x00, 0x00, 0x00, 0x00, 0x00, 0x00, 0x08, 0x0c, 0x00, 0x00, 0x00,
  0x10, 0x00, 0x00, 0x00, 0x5c, 0xfa, 0xff, 0xff, 0x01, 0x00, 0x00, 0x00,
  0x09, 0x00, 0x00, 0x00, 0x03, 0x00, 0x00, 0x00, 0x08, 0x00, 0x00, 0x00,
  0x01, 0x00, 0x00, 0x00, 0x05, 0x00, 0x00, 0x00, 0x00, 0x00, 0x0e, 0x00,
  0x14, 0x00, 0x00, 0x00, 0x10, 0x00, 0x0c, 0x00, 0x0b, 0x00, 0x04, 0x00,
  0x0e, 0x00, 0x00, 0x00, 0x10, 0x00, 0x00, 0x00, 0x00, 0x00, 0x00, 0x08,
  0x10, 0x00, 0x00, 0x00, 0x14, 0x00, 0x00, 0x00, 0xba, 0xff, 0xff, 0xff,
  0x00, 0x00, 0x00, 0x01, 0x01, 0x00, 0x00, 0x00, 0x08, 0x00, 0x00, 0x00,
  0x03, 0x00, 0x00, 0x00, 0x07, 0x00, 0x00, 0x00, 0x02, 0x00, 0x00, 0x00,
  0x03, 0x00, 0x00, 0x00, 0x00, 0x00, 0x0e, 0x00, 0x16, 0x00, 0x00, 0x00,
  0x10, 0x00, 0x0c, 0x00, 0x0b, 0x00, 0x04, 0x00, 0x0e, 0x00, 0x00, 0x00,
  0x18, 0x00, 0x00, 0x00, 0x00, 0x00, 0x00, 0x08, 0x18, 0x00, 0x00, 0x00,
  0x1c, 0x00, 0x00, 0x00, 0x00, 0x00, 0x06, 0x00, 0x08, 0x00, 0x07, 0x00,
  0x06, 0x00, 0x00, 0x00, 0x00, 0x00, 0x00, 0x01, 0x01, 0x00, 0x00, 0x00,
  0x07, 0x00, 0x00, 0x00, 0x03, 0x00, 0x00, 0x00, 0x00, 0x00, 0x00, 0x00,
  0x06, 0x00, 0x00, 0x00, 0x04, 0x00, 0x00, 0x00, 0x01, 0x00, 0x00, 0x00,
  0x0a, 0x00, 0x00, 0x00, 0x01, 0x00, 0x00, 0x00, 0x00, 0x00, 0x00, 0x00,
  0x0b, 0x00, 0x00, 0x00, 0xbc, 0x04, 0x00, 0x00, 0x64, 0x04, 0x00, 0x00,
  0x0c, 0x04, 0x00, 0x00, 0xa4, 0x03, 0x00, 0x00, 0x40, 0x03, 0x00, 0x00,
  0xd4, 0x02, 0x00, 0x00, 0x7c, 0x02, 0x00, 0x00, 0xc4, 0x01, 0x00, 0x00,
  0x04, 0x01, 0x00, 0x00, 0x60, 0x00, 0x00, 0x00, 0x04, 0x00, 0x00, 0x00,
  0x86, 0xfb, 0xff, 0xff, 0x00, 0x00, 0x00, 0x01, 0x14, 0x00, 0x00, 0x00,
  0x1c, 0x00, 0x00, 0x00, 0x1c, 0x00, 0x00, 0x00, 0x0b, 0x00, 0x00, 0x00,
  0x34, 0x00, 0x00, 0x00, 0x02, 0x00, 0x00, 0x00, 0xff, 0xff, 0xff, 0xff,
  0x01, 0x00, 0x00, 0x00, 0x70, 0xfb, 0xff, 0xff, 0x1b, 0x00, 0x00, 0x00,
  0x53, 0x74, 0x61, 0x74, 0x65, 0x66, 0x75, 0x6c, 0x50, 0x61, 0x72, 0x74,
  0x69, 0x74, 0x69, 0x6f, 0x6e, 0x65, 0x64, 0x43, 0x61, 0x6c, 0x6c, 0x5f,
  0x31, 0x3a, 0x30, 0x00, 0x02, 0x00, 0x00, 0x00, 0x01, 0x00, 0x00, 0x00,
  0x01, 0x00, 0x00, 0x00, 0xde, 0xfb, 0xff, 0xff, 0x00, 0x00, 0x00, 0x01,
  0x14, 0x00, 0x00, 0x00, 0x1c, 0x00, 0x00, 0x00, 0x1c, 0x00, 0x00, 0x00,
  0x0a, 0x00, 0x00, 0x00, 0x7c, 0x00, 0x00, 0x00, 0x02, 0x00, 0x00, 0x00,
  0xff, 0xff, 0xff, 0xff, 0x01, 0x00, 0x00, 0x00, 0xc8, 0xfb, 0xff, 0xff,
  0x62, 0x00, 0x00, 0x00, 0x62, 0x69, 0x6e, 0x61, 0x72, 0x79, 0x5f, 0x6c,
  0x65, 0x61, 0x6b, 0x5f, 0x63, 0x6c, 0x61, 0x73, 0x73, 0x69, 0x66, 0x69,
  0x65, 0x72, 0x5f, 0x31, 0x2f, 0x6c, 0x65, 0x61, 0x6b, 0x5f, 0x70, 0x72,
  0x6f, 0x62, 0x61, 0x62, 0x69, 0x6c, 0x69, 0x74, 0x79, 0x5f, 0x31, 0x2f,
  0x4d, 0x61, 0x74, 0x4d, 0x75, 0x6c, 0x3b, 0x62, 0x69, 0x6e, 0x61, 0x72,
  0x79, 0x5f, 0x6c, 0x65, 0x61, 0x6b, 0x5f, 0x63, 0x6c, 0x61, 0x73, 0x73,
  0x69, 0x66, 0x69, 0x65, 0x72, 0x5f, 0x31, 0x2f, 0x6c, 0x65, 0x61, 0x6b,
  0x5f, 0x70, 0x72, 0x6f, 0x62, 0x61, 0x62, 0x69, 0x6c, 0x69, 0x74, 0x79,
  0x5f, 0x31, 0x2f, 0x41, 0x64, 0x64, 0x00, 0x00, 0x02, 0x00, 0x00, 0x00,
  0x01, 0x00, 0x00, 0x00, 0x01, 0x00, 0x00, 0x00, 0x7e, 0xfc, 0xff, 0xff,
  0x00, 0x00, 0x00, 0x01, 0x14, 0x00, 0x00, 0x00, 0x1c, 0x00, 0x00, 0x00,
  0x1c, 0x00, 0x00, 0x00, 0x09, 0x00, 0x00, 0x00, 0x98, 0x00, 0x00, 0x00,
  0x02, 0x00, 0x00, 0x00, 0xff, 0xff, 0xff, 0xff, 0x10, 0x00, 0x00, 0x00,
  0x68, 0xfc, 0xff, 0xff, 0x7c, 0x00, 0x00, 0x00, 0x62, 0x69, 0x6e, 0x61,
  0x72, 0x79, 0x5f, 0x6c, 0x65, 0x61, 0x6b, 0x5f, 0x63, 0x6c, 0x61, 0x73,
  0x73, 0x69, 0x66, 0x69, 0x65, 0x72, 0x5f, 0x31, 0x2f, 0x64, 0x65, 0x6e,
  0x73, 0x65, 0x5f, 0x31, 0x5f, 0x32, 0x2f, 0x4d, 0x61, 0x74, 0x4d, 0x75,
  0x6c, 0x3b, 0x62, 0x69, 0x6e, 0x61, 0x72, 0x79, 0x5f, 0x6c, 0x65, 0x61,
  0x6b, 0x5f, 0x63, 0x6c, 0x61, 0x73, 0x73, 0x69, 0x66, 0x69, 0x65, 0x72,
  0x5f, 0x31, 0x2f, 0x64, 0x65, 0x6e, 0x73, 0x65, 0x5f, 0x31, 0x5f, 0x32,
  0x2f, 0x52, 0x65, 0x6c, 0x75, 0x3b, 0x62, 0x69, 0x6e, 0x61, 0x72, 0x79,
  0x5f, 0x6c, 0x65, 0x61, 0x6b, 0x5f, 0x63, 0x6c, 0x61, 0x73, 0x73, 0x69,
  0x66, 0x69, 0x65, 0x72, 0x5f, 0x31, 0x2f, 0x64, 0x65, 0x6e, 0x73, 0x65,
  0x5f, 0x31, 0x5f, 0x32, 0x2f, 0x42, 0x69, 0x61, 0x73, 0x41, 0x64, 0x64,
  0x00, 0x00, 0x00, 0x00, 0x02, 0x00, 0x00, 0x00, 0x01, 0x00, 0x00, 0x00,
  0x10, 0x00, 0x00, 0x00, 0x3a, 0xfd, 0xff, 0xff, 0x00, 0x00, 0x00, 0x01,
  0x14, 0x00, 0x00, 0x00, 0x1c, 0x00, 0x00, 0x00, 0x1c, 0x00, 0x00, 0x00,
  0x08, 0x00, 0x00, 0x00, 0x90, 0x00, 0x00, 0x00, 0x02, 0x00, 0x00, 0x00,
  0xff, 0xff, 0xff, 0xff, 0x20, 0x00, 0x00, 0x00, 0x24, 0xfd, 0xff, 0xff,
  0x76, 0x00, 0x00, 0x00, 0x62, 0x69, 0x6e, 0x61, 0x72, 0x79, 0x5f, 0x6c,
  0x65, 0x61, 0x6b, 0x5f, 0x63, 0x6c, 0x61, 0x73, 0x73, 0x69, 0x66, 0x69,
  0x65, 0x72, 0x5f, 0x31, 0x2f, 0x64, 0x65, 0x6e, 0x73, 0x65, 0x5f, 0x31,
  0x2f, 0x4d, 0x61, 0x74, 0x4d, 0x75, 0x6c, 0x3b, 0x62, 0x69, 0x6e, 0x61,
  0x72, 0x79, 0x5f, 0x6c, 0x65, 0x61, 0x6b, 0x5f, 0x63, 0x6c, 0x61, 0x73,
  0x73, 0x69, 0x66, 0x69, 0x65, 0x72, 0x5f, 0x31, 0x2f, 0x64, 0x65, 0x6e,
  0x73, 0x65, 0x5f, 0x31, 0x2f, 0x52, 0x65, 0x6c, 0x75, 0x3b, 0x62, 0x69,
  0x6e, 0x61, 0x72, 0x79, 0x5f, 0x6c, 0x65, 0x61, 0x6b, 0x5f, 0x63, 0x6c,
  0x61, 0x73, 0x73, 0x69, 0x66, 0x69, 0x65, 0x72, 0x5f, 0x31, 0x2f, 0x64,
  0x65, 0x6e, 0x73, 0x65, 0x5f, 0x31, 0x2f, 0x42, 0x69, 0x61, 0x73, 0x41,
  0x64, 0x64, 0x00, 0x00, 0x02, 0x00, 0x00, 0x00, 0x01, 0x00, 0x00, 0x00,
  0x20, 0x00, 0x00, 0x00, 0x42, 0xfe, 0xff, 0xff, 0x00, 0x00, 0x00, 0x01,
  0x10, 0x00, 0x00, 0x00, 0x10, 0x00, 0x00, 0x00, 0x07, 0x00, 0x00, 0x00,
  0x34, 0x00, 0x00, 0x00, 0xc8, 0xfd, 0xff, 0xff, 0x27, 0x00, 0x00, 0x00,
  0x62, 0x69, 0x6e, 0x61, 0x72, 0x79, 0x5f, 0x6c, 0x65, 0x61, 0x6b, 0x5f,
  0x63, 0x6c, 0x61, 0x73, 0x73, 0x69, 0x66, 0x69, 0x65, 0x72, 0x5f, 0x31,
  0x2f, 0x64, 0x65, 0x6e, 0x73, 0x65, 0x5f, 0x31, 0x2f, 0x4d, 0x61, 0x74,
  0x4d, 0x75, 0x6c, 0x00, 0x02, 0x00, 0x00, 0x00, 0x20, 0x00, 0x00, 0x00,
  0x0d, 0x00, 0x00, 0x00, 0x96, 0xfe, 0xff, 0xff, 0x00, 0x00, 0x00, 0x01,
  0x10, 0x00, 0x00, 0x00, 0x10, 0x00, 0x00, 0x00, 0x06, 0x00, 0x00, 0x00,
  0x4c, 0x00, 0x00, 0x00, 0x1c, 0xfe, 0xff, 0xff, 0x3e, 0x00, 0x00, 0x00,
  0x62, 0x69, 0x6e, 0x61, 0x72, 0x79, 0x5f, 0x6c, 0x65, 0x61, 0x6b, 0x5f,
  0x63, 0x6c, 0x61, 0x73, 0x73, 0x69, 0x66, 0x69, 0x65, 0x72, 0x5f, 0x31,
  0x2f, 0x6c, 0x65, 0x61, 0x6b, 0x5f, 0x70, 0x72, 0x6f, 0x62, 0x61, 0x62,
  0x69, 0x6c, 0x69, 0x74, 0x79, 0x5f, 0x31, 0x2f, 0x41, 0x64, 0x64, 0x2f,
  0x52, 0x65, 0x61, 0x64, 0x56, 0x61, 0x72, 0x69, 0x61, 0x62, 0x6c, 0x65,
  0x4f, 0x70, 0x00, 0x00, 0x01, 0x00, 0x00, 0x00, 0x01, 0x00, 0x00, 0x00,
  0xfe, 0xfe, 0xff, 0xff, 0x00, 0x00, 0x00, 0x01, 0x10, 0x00, 0x00, 0x00,
  0x10, 0x00, 0x00, 0x00, 0x05, 0x00, 0x00, 0x00, 0x44, 0x00, 0x00, 0x00,
  0x84, 0xfe, 0xff, 0xff, 0x37, 0x00, 0x00, 0x00, 0x62, 0x69, 0x6e, 0x61,
  0x72, 0x79, 0x5f, 0x6c, 0x65, 0x61, 0x6b, 0x5f, 0x63, 0x6c, 0x61, 0x73,
  0x73, 0x69, 0x66, 0x69, 0x65, 0x72, 0x5f, 0x31, 0x2f, 0x64, 0x65, 0x6e,
  0x73, 0x65, 0x5f, 0x31, 0x2f, 0x42, 0x69, 0x61, 0x73, 0x41, 0x64, 0x64,
  0x2f, 0x52, 0x65, 0x61, 0x64, 0x56, 0x61, 0x72, 0x69, 0x61, 0x62, 0x6c,
  0x65, 0x4f, 0x70, 0x00, 0x01, 0x00, 0x00, 0x00, 0x20, 0x00, 0x00, 0x00,
  0x5e, 0xff, 0xff, 0xff, 0x00, 0x00, 0x00, 0x01, 0x10, 0x00, 0x00, 0x00,
  0x10, 0x00, 0x00, 0x00, 0x04, 0x00, 0x00, 0x00, 0x48, 0x00, 0x00, 0x00,
  0xe4, 0xfe, 0xff, 0xff, 0x39, 0x00, 0x00, 0x00, 0x62, 0x69, 0x6e, 0x61,
  0x72, 0x79, 0x5f, 0x6c, 0x65, 0x61, 0x6b, 0x5f, 0x63, 0x6c, 0x61, 0x73,
  0x73, 0x69, 0x66, 0x69, 0x65, 0x72, 0x5f, 0x31, 0x2f, 0x64, 0x65, 0x6e,
  0x73, 0x65, 0x5f, 0x31, 0x5f, 0x32, 0x2f, 0x42, 0x69, 0x61, 0x73, 0x41,
  0x64, 0x64, 0x2f, 0x52, 0x65, 0x61, 0x64, 0x56, 0x61, 0x72, 0x69, 0x61,
  0x62, 0x6c, 0x65, 0x4f, 0x70, 0x00, 0x00, 0x00, 0x01, 0x00, 0x00, 0x00,
  0x10, 0x00, 0x00, 0x00, 0xc2, 0xff, 0xff, 0xff, 0x00, 0x00, 0x00, 0x01,
  0x10, 0x00, 0x00, 0x00, 0x10, 0x00, 0x00, 0x00, 0x03, 0x00, 0x00, 0x00,
  0x1c, 0x00, 0x00, 0x00, 0x48, 0xff, 0xff, 0xff, 0x0f, 0x00, 0x00, 0x00,
  0x61, 0x72, 0x69, 0x74, 0x68, 0x2e, 0x63, 0x6f, 0x6e, 0x73, 0x74, 0x61,
  0x6e, 0x74, 0x31, 0x00, 0x02, 0x00, 0x00, 0x00, 0x10, 0x00, 0x00, 0x00,
  0x20, 0x00, 0x00, 0x00, 0x00, 0x00, 0x16, 0x00, 0x18, 0x00, 0x14, 0x00,
  0x00, 0x00, 0x10, 0x00, 0x0c, 0x00, 0x08, 0x00, 0x00, 0x00, 0x00, 0x00,
  0x00, 0x00, 0x07, 0x00, 0x16, 0x00, 0x00, 0x00, 0x00, 0x00, 0x00, 0x01,
  0x10, 0x00, 0x00, 0x00, 0x10, 0x00, 0x00, 0x00, 0x02, 0x00, 0x00, 0x00,
  0x1c, 0x00, 0x00, 0x00, 0x9c, 0xff, 0xff, 0xff, 0x0e, 0x00, 0x00, 0x00,
  0x61, 0x72, 0x69, 0x74, 0x68, 0x2e, 0x63, 0x6f, 0x6e, 0x73, 0x74, 0x61,
  0x6e, 0x74, 0x00, 0x00, 0x02, 0x00, 0x00, 0x00, 0x01, 0x00, 0x00, 0x00,
  0x10, 0x00, 0x00, 0x00, 0x00, 0x00, 0x16, 0x00, 0x1c, 0x00, 0x18, 0x00,
  0x00, 0x00, 0x14, 0x00, 0x10, 0x00, 0x0c, 0x00, 0x00, 0x00, 0x00, 0x00,
  0x08, 0x00, 0x07, 0x00, 0x16, 0x00, 0x00, 0x00, 0x00, 0x00, 0x00, 0x01,
  0x14, 0x00, 0x00, 0x00, 0x20, 0x00, 0x00, 0x00, 0x20, 0x00, 0x00, 0x00,
  0x01, 0x00, 0x00, 0x00, 0x44, 0x00, 0x00, 0x00, 0x02, 0x00, 0x00, 0x00,
  0xff, 0xff, 0xff, 0xff, 0x0d, 0x00, 0x00, 0x00, 0x04, 0x00, 0x04, 0x00,
  0x04, 0x00, 0x00, 0x00, 0x25, 0x00, 0x00, 0x00, 0x73, 0x65, 0x72, 0x76,
  0x69, 0x6e, 0x67, 0x5f, 0x64, 0x65, 0x66, 0x61, 0x75, 0x6c, 0x74, 0x5f,
  0x6e, 0x6f, 0x72, 0x6d, 0x61, 0x6c, 0x69, 0x7a, 0x65, 0x64, 0x5f, 0x66,
  0x65, 0x61, 0x74, 0x75, 0x72, 0x65, 0x73, 0x3a, 0x30, 0x00, 0x00, 0x00,
  0x02, 0x00, 0x00, 0x00, 0x01, 0x00, 0x00, 0x00, 0x0d, 0x00, 0x00, 0x00,
  0x02, 0x00, 0x00, 0x00, 0x20, 0x00, 0x00, 0x00, 0x04, 0x00, 0x00, 0x00,
  0xf4, 0xff, 0xff, 0xff, 0x0e, 0x00, 0x00, 0x00, 0x00, 0x00, 0x00, 0x0e,
  0x0c, 0x00, 0x0c, 0x00, 0x0b, 0x00, 0x00, 0x00, 0x00, 0x00, 0x04, 0x00,
  0x0c, 0x00, 0x00, 0x00, 0x09, 0x00, 0x00, 0x00, 0x00, 0x00, 0x00, 0x09
};

const unsigned int g_leak_model_data_len = 6264;
